/* Copyright 2019 The TensorFlow Authors. All Rights Reserved.

Licensed under the Apache License, Version 2.0 (the "License");
you may not use this file except in compliance with the License.
You may obtain a copy of the License at

    http://www.apache.org/licenses/LICENSE-2.0

Unless required by applicable law or agreed to in writing, software
distributed under the License is distributed on an "AS IS" BASIS,
WITHOUT WARRANTIES OR CONDITIONS OF ANY KIND, either express or implied.
See the License for the specific language governing permissions and
limitations under the License.
==============================================================================*/

#include "door_model_data.h"

// We need to keep the data array aligned on some architectures.
#ifdef __has_attribute
#define HAVE_ATTRIBUTE(x) __has_attribute(x)
#else
#define HAVE_ATTRIBUTE(x) 0
#endif
#if HAVE_ATTRIBUTE(aligned) || (defined(__GNUC__) && !defined(__clang__))
#define DATA_ALIGN_ATTRIBUTE __attribute__((aligned(4)))
#else
#define DATA_ALIGN_ATTRIBUTE
#endif

const unsigned char g_door_model_data[] DATA_ALIGN_ATTRIBUTE = {
  0x1c, 0x00, 0x00, 0x00, 0x54, 0x46, 0x4c, 0x33, 0x00, 0x00, 0x12, 0x00,
  0x1c, 0x00, 0x04, 0x00, 0x08, 0x00, 0x0c, 0x00, 0x10, 0x00, 0x14, 0x00,
  0x00, 0x00, 0x18, 0x00, 0x12, 0x00, 0x00, 0x00, 0x03, 0x00, 0x00, 0x00,
  0x50, 0x15, 0x00, 0x00, 0x88, 0x10, 0x00, 0x00, 0x70, 0x10, 0x00, 0x00,
  0x34, 0x00, 0x00, 0x00, 0x04, 0x00, 0x00, 0x00, 0x01, 0x00, 0x00, 0x00,
  0x04, 0x00, 0x00, 0x00, 0x54, 0xeb, 0xff, 0xff, 0x08, 0x00, 0x00, 0x00,
  0x0c, 0x00, 0x00, 0x00, 0x13, 0x00, 0x00, 0x00, 0x6d, 0x69, 0x6e, 0x5f,
  0x72, 0x75, 0x6e, 0x74, 0x69, 0x6d, 0x65, 0x5f, 0x76, 0x65, 0x72, 0x73,
  0x69, 0x6f, 0x6e, 0x00, 0x0d, 0x00, 0x00, 0x00, 0x30, 0x10, 0x00, 0x00,
  0x60, 0x0f, 0x00, 0x00, 0x44, 0x0f, 0x00, 0x00, 0xf4, 0x0e, 0x00, 0x00,
  0xe4, 0x06, 0x00, 0x00, 0x54, 0x06, 0x00, 0x00, 0x4c, 0x06, 0x00, 0x00,
  0x44, 0x06, 0x00, 0x00, 0x3c, 0x06, 0x00, 0x00, 0x2c, 0x00, 0x00, 0x00,
  0x24, 0x00, 0x00, 0x00, 0x1c, 0x00, 0x00, 0x00, 0x04, 0x00, 0x00, 0x00,
  0x86, 0xef, 0xff, 0xff, 0x04, 0x00, 0x00, 0x00, 0x05, 0x00, 0x00, 0x00,
  0x31, 0x2e, 0x35, 0x2e, 0x30, 0x00, 0x00, 0x00, 0x60, 0xeb, 0xff, 0xff,
  0x64, 0xeb, 0xff, 0xff, 0xa2, 0xef, 0xff, 0xff, 0x04, 0x00, 0x00, 0x00,
  0x00, 0x06, 0x00, 0x00, 0x2c, 0xbb, 0xbe, 0xbd, 0x55, 0xd0, 0xcc, 0xbe,
  0xbc, 0x9a, 0x9f, 0x3e, 0xb9, 0x73, 0x04, 0xbe, 0xce, 0x51, 0x04, 0x3f,
  0x6a, 0x73, 0xe7, 0x3e, 0x07, 0x35, 0xda, 0x3e, 0x8b, 0x76, 0xa8, 0x3e,
  0x39, 0x70, 0x3e, 0x3c, 0xda, 0x87, 0xdb, 0xbd, 0x8a, 0x1c, 0x5e, 0xbe,
  0xc7, 0x54, 0x8f, 0xbe, 0xa7, 0xa9, 0xbc, 0x3d, 0x09, 0x76, 0x86, 0x3e,
  0xb6, 0x7f, 0x93, 0xbe, 0xad, 0x3f, 0x1b, 0xbe, 0xc8, 0x44, 0x39, 0x3f,
  0x42, 0xe4, 0x2d, 0x3f, 0xbe, 0x39, 0x6e, 0xbd, 0x95, 0xa8, 0x04, 0x3d,
  0x3e, 0x2b, 0x8b, 0xbe, 0xea, 0x66, 0xba, 0x3e, 0x7d, 0xc5, 0x41, 0x3e,
  0x1c, 0x21, 0xec, 0x3d, 0xc0, 0xd6, 0xdd, 0xbb, 0x5c, 0x7e, 0x8f, 0xbd,
  0x82, 0xbf, 0x55, 0xbe, 0x00, 0xec, 0xf7, 0xba, 0xb3, 0x16, 0xaa, 0x3e,
  0x1b, 0x27, 0xb4, 0xbe, 0x12, 0xe9, 0xaa, 0xbe, 0xfa, 0xb6, 0x50, 0x3e,
  0x66, 0xa9, 0x49, 0x3e, 0x6c, 0xc7, 0x92, 0xbe, 0x42, 0x2d, 0xf5, 0xbd,
  0x24, 0x29, 0x9c, 0xbd, 0xa6, 0x7b, 0x1d, 0x3d, 0xb6, 0x74, 0xad, 0xbd,
  0x77, 0xf7, 0x02, 0x3e, 0x76, 0x40, 0x9e, 0x3e, 0xa5, 0x64, 0x28, 0xbe,
  0xdf, 0xb9, 0x3c, 0xbe, 0x06, 0xd9, 0x36, 0x3d, 0x25, 0x4b, 0xb6, 0x3c,
  0x58, 0x61, 0xa2, 0xbd, 0x2b, 0xa4, 0x70, 0x3e, 0x8d, 0xbe, 0x9c, 0xbe,
  0x17, 0x14, 0xa6, 0xbd, 0x51, 0x80, 0x82, 0x3e, 0xb1, 0x55, 0xb1, 0xbe,
  0x68, 0x33, 0x7f, 0x3d, 0x14, 0xd5, 0x00, 0xbe, 0xb0, 0x08, 0xb0, 0xbd,
  0xf8, 0x88, 0x75, 0xbd, 0xac, 0xc1, 0x5c, 0xbe, 0xee, 0x8b, 0x96, 0xbe,
  0x13, 0x1e, 0xae, 0x3e, 0x72, 0x01, 0x5c, 0x3e, 0x2c, 0xef, 0xf1, 0xbd,
  0xf7, 0xe4, 0x8c, 0xbe, 0xca, 0x7b, 0x46, 0xbe, 0x37, 0x96, 0x15, 0x3e,
  0xe1, 0xd4, 0x28, 0xbe, 0x3a, 0xf2, 0x57, 0x3e, 0xcb, 0xf7, 0x10, 0x3f,
  0x11, 0xa6, 0xe1, 0x3e, 0x94, 0x44, 0x1a, 0x3f, 0x16, 0xe4, 0x5b, 0x3e,
  0x26, 0x89, 0xc4, 0x3e, 0x26, 0x8e, 0x38, 0xbe, 0xb2, 0x38, 0x98, 0x3e,
  0xef, 0x77, 0x4a, 0x3e, 0xf5, 0x1f, 0xee, 0x3d, 0x47, 0x37, 0x63, 0xbe,
  0x01, 0x0a, 0x96, 0x3e, 0x8b, 0xf9, 0x90, 0x3e, 0xb0, 0x60, 0x5a, 0xbe,
  0x93, 0x8d, 0x3e, 0xbf, 0x1b, 0xe3, 0xe8, 0xbd, 0x95, 0x37, 0x49, 0x3d,
  0x1b, 0xbe, 0xb6, 0x3d, 0x55, 0x29, 0x27, 0x3e, 0x6b, 0x34, 0x2d, 0x3d,
  0xa3, 0x23, 0x2f, 0x3e, 0xd8, 0x4a, 0x00, 0x3d, 0x60, 0x7f, 0x19, 0x3d,
  0x85, 0xcd, 0x5d, 0xbe, 0xfd, 0x93, 0x19, 0xbe, 0xd2, 0x7a, 0xaa, 0xbd,
  0x67, 0xea, 0x27, 0xbf, 0xc9, 0xaf, 0xca, 0xbe, 0x89, 0x7e, 0x1a, 0x3e,
  0x14, 0x84, 0x92, 0x3e, 0x64, 0xb6, 0x9a, 0x3e, 0x68, 0xb9, 0xd4, 0x3e,
  0x57, 0x74, 0xcc, 0x3d, 0x99, 0x99, 0x6b, 0xbe, 0x8d, 0xa0, 0x95, 0xbe,
  0x70, 0x9b, 0x83, 0xbe, 0xe0, 0x89, 0x5d, 0xbc, 0x76, 0xfa, 0x71, 0x3e,
  0x22, 0x69, 0xba, 0xbe, 0x67, 0x6a, 0x39, 0xbe, 0xdc, 0x36, 0x85, 0x3d,
  0x97, 0x4a, 0xb0, 0xbe, 0x60, 0x88, 0x86, 0xbc, 0x40, 0xf1, 0x16, 0xbe,
  0x28, 0x8e, 0x6c, 0xbd, 0x66, 0x36, 0x10, 0x3e, 0x35, 0x29, 0x97, 0x3e,
  0x1e, 0xdf, 0x62, 0xbe, 0x56, 0x64, 0xaf, 0xbe, 0x26, 0x41, 0x85, 0xbe,
  0xb8, 0x03, 0xf4, 0xbd, 0x62, 0x73, 0x36, 0xbe, 0x34, 0x9f, 0xc6, 0x3d,
  0xc0, 0x89, 0x31, 0x3d, 0x81, 0xc4, 0xa1, 0x3e, 0xfb, 0x74, 0xa8, 0xbe,
  0x83, 0x1f, 0xaf, 0xbe, 0xd3, 0x32, 0xca, 0x3c, 0x74, 0x7a, 0x31, 0x3e,
  0x2c, 0xcb, 0xe2, 0x3e, 0x26, 0x4e, 0x1f, 0x3f, 0xd5, 0x7b, 0xd6, 0x3e,
  0x6c, 0x96, 0x96, 0xbe, 0xa8, 0x94, 0x7b, 0x3e, 0x83, 0x36, 0xda, 0x3e,
  0xb0, 0x88, 0x10, 0x3f, 0x57, 0x9a, 0xeb, 0x3d, 0x6a, 0x8b, 0xbe, 0x3e,
  0x0c, 0x18, 0x1a, 0x3f, 0x5b, 0x59, 0x7e, 0x3e, 0xb3, 0x38, 0xee, 0x3e,
  0xb9, 0x24, 0xab, 0xbb, 0x99, 0xd3, 0x56, 0xbe, 0x1a, 0x3d, 0x4a, 0xbe,
  0x25, 0x44, 0xfe, 0xbe, 0x4e, 0x00, 0xf5, 0xbe, 0x75, 0x93, 0xf3, 0x3d,
  0xea, 0x5e, 0x4f, 0xbe, 0x46, 0x2e, 0x97, 0x3e, 0x85, 0x4b, 0x17, 0x3e,
  0x87, 0x89, 0xbd, 0x3e, 0xec, 0x7e, 0x78, 0xbe, 0x05, 0xca, 0xdb, 0xbd,
  0x23, 0x85, 0x12, 0x3e, 0x51, 0xef, 0x4f, 0x3e, 0x9e, 0xba, 0x13, 0x3f,
  0xdb, 0x65, 0x5c, 0x3f, 0x93, 0xea, 0x8c, 0x3e, 0xd0, 0x38, 0x91, 0x3d,
  0x04, 0xd5, 0x36, 0xbd, 0x1f, 0x37, 0x8b, 0x3e, 0x6a, 0xa9, 0xaf, 0x3e,
  0xc0, 0x7f, 0x23, 0xbe, 0xd7, 0x4b, 0xfd, 0x3e, 0x57, 0xf0, 0xcc, 0x3e,
  0xef, 0xbc, 0xea, 0x3c, 0x31, 0x5a, 0x72, 0xbe, 0x44, 0x75, 0xe7, 0xbe,
  0x68, 0xea, 0x49, 0xbf, 0x94, 0xb1, 0x9b, 0xbe, 0x4d, 0xd9, 0x6f, 0xbe,
  0x6a, 0x95, 0x08, 0x3e, 0x75, 0x1a, 0xbf, 0x3e, 0x41, 0xbb, 0xf9, 0x3e,
  0x95, 0xf5, 0x23, 0x3d, 0x7c, 0x92, 0xf8, 0xbd, 0xf5, 0xb0, 0x9c, 0xbe,
  0x1e, 0x6b, 0xa2, 0xbe, 0xb2, 0x1a, 0xa4, 0xbe, 0xdc, 0x24, 0x0d, 0xbe,
  0x30, 0x04, 0x03, 0x3e, 0x01, 0x22, 0x05, 0xbe, 0xdc, 0xd4, 0x9a, 0xbe,
  0x01, 0x8e, 0x83, 0xbe, 0x0d, 0xa9, 0xa3, 0x3e, 0x75, 0xe1, 0x26, 0xbe,
  0x40, 0xe2, 0xd0, 0x3c, 0x02, 0xa1, 0x17, 0x3e, 0x0a, 0x99, 0xb1, 0xbe,
  0xd0, 0x77, 0xde, 0xbd, 0xb8, 0x76, 0x2f, 0x3d, 0x39, 0x47, 0x15, 0xbe,
  0xba, 0x63, 0xf6, 0xbd, 0xdd, 0xed, 0x09, 0xbe, 0x84, 0x9f, 0x5a, 0xbe,
  0x50, 0x4a, 0x60, 0xbd, 0x58, 0x6e, 0x8d, 0x3d, 0x7f, 0xe7, 0x05, 0xbe,
  0x00, 0x76, 0x5e, 0x3a, 0x5c, 0x53, 0xb8, 0xbd, 0x87, 0xbe, 0x53, 0xbd,
  0x19, 0xcc, 0x98, 0x3d, 0x97, 0xb1, 0x69, 0x3e, 0x1f, 0x6c, 0x1b, 0x3f,
  0x2a, 0xf8, 0x34, 0x3f, 0x1a, 0x63, 0x98, 0x3e, 0x4f, 0x8d, 0xa5, 0x3e,
  0xb8, 0xa9, 0xb2, 0xbe, 0xef, 0xc3, 0xbd, 0xbe, 0x7d, 0x08, 0x81, 0x3d,
  0xb5, 0xb6, 0x4a, 0xbe, 0xf2, 0xe6, 0xce, 0x3e, 0xe6, 0x46, 0xe0, 0x3e,
  0x69, 0x13, 0x04, 0x3e, 0xb4, 0xbb, 0xf2, 0x3d, 0xbe, 0xa8, 0xa2, 0x3e,
  0x2c, 0x6d, 0x2b, 0xbe, 0x01, 0xdd, 0x17, 0x3e, 0xb4, 0x84, 0xc7, 0xbd,
  0x1e, 0xe6, 0x7d, 0x3e, 0xbc, 0x5e, 0xbe, 0x3e, 0x8a, 0xd3, 0x8a, 0x3e,
  0xd4, 0xd3, 0x7e, 0x3e, 0x1e, 0x9a, 0x03, 0x3c, 0x47, 0xf3, 0x34, 0x3e,
  0xec, 0x3c, 0x6f, 0x3e, 0x89, 0x6b, 0x89, 0x3d, 0xa6, 0x85, 0x9c, 0xbd,
  0xda, 0xdc, 0x3a, 0xbf, 0x91, 0x93, 0x00, 0xbd, 0xa7, 0xf6, 0x06, 0xbd,
  0xd7, 0xfe, 0xb9, 0x3d, 0x4c, 0x77, 0x28, 0x3d, 0x79, 0x52, 0x29, 0x3b,
  0x51, 0x0e, 0x55, 0x3e, 0xb6, 0xb5, 0xef, 0x3d, 0xc1, 0x2f, 0x87, 0xbd,
  0xad, 0x34, 0x04, 0xbe, 0x74, 0x46, 0x4d, 0x3e, 0x31, 0x1a, 0xa5, 0xbe,
  0x97, 0xb3, 0x7f, 0x3d, 0x10, 0x29, 0x7e, 0x3e, 0x72, 0x07, 0x86, 0x3d,
  0x7c, 0x7e, 0xbc, 0xbe, 0x72, 0xf9, 0xf9, 0x3d, 0xed, 0x12, 0x20, 0x3e,
  0x2f, 0xb0, 0x51, 0xbe, 0xf2, 0xf7, 0x75, 0xbe, 0xcc, 0x15, 0x97, 0xbe,
  0x20, 0x02, 0x0f, 0xbe, 0xc3, 0x0c, 0x78, 0xbe, 0x5b, 0x24, 0xb9, 0xbe,
  0x20, 0x56, 0xfe, 0xbc, 0xc8, 0x27, 0xde, 0xbd, 0x54, 0xe5, 0xa4, 0x3d,
  0x6c, 0xb9, 0x0f, 0xbe, 0x0b, 0x49, 0x94, 0x3e, 0xfa, 0xe6, 0x17, 0x3e,
  0x19, 0x6d, 0xbc, 0x3e, 0xb8, 0x9d, 0xa5, 0xbe, 0xa2, 0x24, 0x40, 0x3e,
  0x4f, 0x31, 0x5a, 0xbe, 0xf1, 0x98, 0x4e, 0xbe, 0x36, 0xb4, 0xb4, 0xbe,
  0x9b, 0xf1, 0x96, 0x3e, 0x13, 0x6d, 0x97, 0x3e, 0x00, 0x84, 0xed, 0xbd,
  0xf5, 0x4a, 0x80, 0x3e, 0x1e, 0xe2, 0x9b, 0xbe, 0xf8, 0x31, 0x08, 0xbd,
  0x3b, 0xcd, 0xb5, 0xbe, 0xe5, 0xd1, 0x53, 0xbd, 0xe9, 0x8f, 0x28, 0x3e,
  0xdc, 0x11, 0x64, 0xbe, 0x35, 0x90, 0xc6, 0xbc, 0xfe, 0x30, 0x23, 0x3f,
  0xd4, 0xbf, 0x11, 0x3f, 0xc6, 0x20, 0xa5, 0xbd, 0xae, 0x71, 0x95, 0x3e,
  0x79, 0x9a, 0x39, 0xbe, 0x46, 0x3a, 0x84, 0x3e, 0xd5, 0x93, 0x4d, 0x3e,
  0xed, 0x60, 0x98, 0xbd, 0x2e, 0x32, 0x81, 0xbd, 0x96, 0xe8, 0xab, 0x3e,
  0xed, 0x02, 0xc8, 0x3e, 0x7a, 0x95, 0xa6, 0xbe, 0xe5, 0x38, 0x1a, 0xbe,
  0x54, 0xe2, 0xa8, 0xbd, 0x05, 0x05, 0xb9, 0x3d, 0x19, 0xaf, 0x8e, 0x3e,
  0xbb, 0x08, 0xa5, 0x3b, 0x12, 0x84, 0x05, 0x3e, 0x05, 0x24, 0xf8, 0x3e,
  0xc3, 0x1d, 0x08, 0x3f, 0x1c, 0x9b, 0x40, 0x3e, 0x89, 0x6c, 0xb8, 0x3d,
  0xd5, 0xef, 0xa1, 0x3e, 0x33, 0x12, 0x78, 0xbe, 0x46, 0x93, 0x05, 0xbf,
  0xff, 0x27, 0xf7, 0xbe, 0x0e, 0xe7, 0x47, 0xbe, 0xb3, 0x96, 0x9d, 0x3e,
  0x15, 0x34, 0x5e, 0xbe, 0xe4, 0x8d, 0xfb, 0x3d, 0x39, 0xeb, 0x93, 0x3e,
  0x2d, 0x09, 0x57, 0x3e, 0x96, 0xe5, 0xa3, 0xbe, 0x0f, 0x48, 0x0b, 0xbe,
  0x83, 0x17, 0xa1, 0xbe, 0xe0, 0xd9, 0xaf, 0xbc, 0x08, 0x19, 0xaa, 0x3d,
  0x19, 0x75, 0xbb, 0xbe, 0x9c, 0x65, 0x97, 0x3d, 0x15, 0x85, 0xa2, 0xbe,
  0x50, 0xa4, 0xf1, 0xbc, 0x26, 0x6d, 0x14, 0x3e, 0x48, 0x58, 0x92, 0xbe,
  0x2a, 0x2e, 0x59, 0x3e, 0x3a, 0xab, 0x72, 0x3e, 0x16, 0xdf, 0x7d, 0xbe,
  0xea, 0x57, 0x07, 0xbe, 0xd8, 0x15, 0x5a, 0xbe, 0x2d, 0x83, 0x58, 0xbe,
  0xef, 0x80, 0x5f, 0xbe, 0x55, 0x3e, 0x9d, 0x3e, 0x26, 0xd7, 0x40, 0xbe,
  0x48, 0x59, 0xb2, 0xbd, 0x8f, 0x0f, 0x69, 0xbe, 0x98, 0x6f, 0x58, 0xbd,
  0xde, 0x87, 0x18, 0xbe, 0x17, 0x4f, 0x84, 0xbe, 0x60, 0x10, 0xa2, 0x3c,
  0xd5, 0x40, 0xaa, 0xbe, 0xa6, 0x04, 0x00, 0x3e, 0x21, 0xa5, 0x81, 0x3e,
  0x10, 0x56, 0x05, 0x3d, 0x9c, 0x72, 0xd1, 0xbd, 0x13, 0x1c, 0xab, 0xbe,
  0xd8, 0xfa, 0x3d, 0x3d, 0x9b, 0x2a, 0xa8, 0x3e, 0x3c, 0xbc, 0x82, 0xbe,
  0x5f, 0x3a, 0x08, 0xbe, 0x6f, 0xe6, 0xa3, 0xbd, 0xfb, 0xb4, 0xc4, 0xbe,
  0x2b, 0x47, 0x49, 0xbe, 0x2c, 0x52, 0xb4, 0x3e, 0xaa, 0x08, 0x13, 0x3f,
  0xc5, 0x5a, 0x60, 0x3f, 0x96, 0xa2, 0x65, 0x3e, 0x5c, 0x51, 0x6d, 0xbd,
  0xd6, 0xbd, 0xa8, 0x3e, 0x94, 0x92, 0xb2, 0x3d, 0xf0, 0x89, 0xb9, 0x3e,
  0xf7, 0x27, 0x14, 0x3c, 0xab, 0xd5, 0x1b, 0xbe, 0x40, 0x2a, 0x91, 0x3b,
  0x00, 0x60, 0x63, 0xb9, 0x47, 0x48, 0x8b, 0xbe, 0xf0, 0x2c, 0xe3, 0x3d,
  0x44, 0xa7, 0xb3, 0xbe, 0x4f, 0xc6, 0xb2, 0x3e, 0x00, 0xeb, 0xc2, 0x3d,
  0x18, 0xfa, 0x41, 0xbd, 0x94, 0x11, 0xbc, 0xbe, 0x32, 0x2d, 0x6d, 0x3e,
  0x76, 0xe6, 0x5c, 0xbe, 0x1f, 0xf3, 0x41, 0x3d, 0xd0, 0x81, 0x84, 0x3e,
  0x5b, 0x20, 0x44, 0xbc, 0x4c, 0x1c, 0xa4, 0xbe, 0xde, 0x4d, 0x72, 0x3c,
  0x3d, 0xd4, 0x48, 0xbf, 0x37, 0x54, 0x79, 0xbd, 0xc4, 0x43, 0x89, 0x3e,
  0x4b, 0xc0, 0xb0, 0x3e, 0x13, 0x54, 0x84, 0x3e, 0x6c, 0x26, 0x80, 0xbe,
  0x3a, 0xba, 0x8f, 0x3d, 0xa5, 0xcf, 0xa8, 0x3e, 0x7f, 0x67, 0x04, 0x3f,
  0xa6, 0x9f, 0x36, 0xbe, 0x49, 0x66, 0x80, 0xbe, 0xe1, 0xb9, 0xa5, 0xbe,
  0xcc, 0xd6, 0x21, 0xbf, 0x63, 0x89, 0x2d, 0xbe, 0xc5, 0x87, 0xa8, 0x3d,
  0x59, 0x12, 0xbe, 0xbd, 0x66, 0x0d, 0x99, 0x3e, 0x6d, 0xfe, 0xc2, 0xbc,
  0x37, 0x7d, 0xc7, 0x3e, 0x74, 0xf1, 0xff, 0xff, 0x78, 0xf1, 0xff, 0xff,
  0x7c, 0xf1, 0xff, 0xff, 0xba, 0xf5, 0xff, 0xff, 0x04, 0x00, 0x00, 0x00,
  0x80, 0x00, 0x00, 0x00, 0x13, 0x9d, 0x04, 0xbe, 0xee, 0x5c, 0xc5, 0xbd,
  0x00, 0x00, 0x00, 0x00, 0x10, 0xab, 0x89, 0xbc, 0x00, 0x00, 0x00, 0x00,
  0xeb, 0xf7, 0xb5, 0xbd, 0x23, 0x81, 0x6b, 0x3e, 0xbb, 0xd6, 0x56, 0x3e,
  0x00, 0x00, 0x00, 0x00, 0x00, 0x00, 0x00, 0x00, 0x1a, 0xc3, 0xbf, 0x3e,
  0x33, 0x4a, 0x37, 0x3e, 0x42, 0x47, 0x24, 0xbe, 0xcf, 0x06, 0x87, 0x3e,
  0x00, 0x00, 0x00, 0x00, 0x00, 0x00, 0x00, 0x00, 0xe7, 0x73, 0x33, 0xbe,
  0xb3, 0x71, 0x47, 0x3e, 0x63, 0xde, 0x0e, 0x3e, 0xbd, 0xe3, 0x19, 0xbc,
  0x00, 0x00, 0x00, 0x00, 0x00, 0x00, 0x00, 0x00, 0x9d, 0x41, 0x46, 0xbe,
  0x53, 0xb4, 0x90, 0x3e, 0x59, 0x6b, 0x4c, 0x3e, 0x00, 0x00, 0x00, 0x00,
  0x00, 0x00, 0x00, 0x00, 0x00, 0x00, 0x00, 0x00, 0xc1, 0x93, 0x15, 0xbe,
  0x00, 0x00, 0x00, 0x00, 0xb9, 0x50, 0x6e, 0x3e, 0xa5, 0x48, 0x77, 0x3e,
  0x46, 0xf6, 0xff, 0xff, 0x04, 0x00, 0x00, 0x00, 0x00, 0x08, 0x00, 0x00,
  0xb4, 0x56, 0x85, 0x3d, 0xb7, 0x61, 0x95, 0xbe, 0x08, 0x35, 0xc5, 0xbd,
  0xde, 0xa1, 0xb4, 0xbe, 0x06, 0xbc, 0x1c, 0x3e, 0x33, 0x7d, 0xa0, 0x3e,
  0x64, 0xca, 0xfb, 0x3d, 0x90, 0xf7, 0xee, 0x3d, 0x98, 0x16, 0x7a, 0xbe,
  0x5a, 0x99, 0x0f, 0x3e, 0xb2, 0x87, 0x29, 0xbe, 0x34, 0xa0, 0x02, 0x3e,
  0x00, 0x91, 0x8b, 0xbe, 0xe0, 0x1f, 0x42, 0x3c, 0xae, 0x7f, 0x4f, 0x3e,
  0x9f, 0x63, 0xa0, 0x3e, 0xbd, 0x0f, 0x0a, 0xbe, 0x76, 0x61, 0x2b, 0x3e,
  0xa1, 0x01, 0x9f, 0xbe, 0x27, 0xc2, 0x90, 0xbe, 0x60, 0xa3, 0xef, 0x3c,
  0x8b, 0xdc, 0x84, 0x3e, 0x10, 0x81, 0x82, 0xbe, 0x78, 0x77, 0x84, 0xbd,
  0xa9, 0x07, 0xac, 0xbe, 0x65, 0x7d, 0x43, 0xbe, 0x9b, 0xd2, 0x4a, 0xbe,
  0x2c, 0x1a, 0xd5, 0x3d, 0x80, 0x33, 0xe8, 0x3d, 0x34, 0xc8, 0x49, 0xbe,
  0xb2, 0x50, 0x26, 0x3e, 0xbc, 0xfd, 0x7e, 0xbe, 0x27, 0x85, 0x36, 0xbe,
  0x66, 0x93, 0x3b, 0xbe, 0x2a, 0xac, 0x62, 0x3e, 0x2a, 0x8d, 0x63, 0x3e,
  0x43, 0x8b, 0x51, 0xbe, 0x68, 0x43, 0xb6, 0xbd, 0xda, 0xf6, 0x1a, 0x3e,
  0xa0, 0x27, 0x68, 0x3d, 0x00, 0x52, 0x2c, 0x3d, 0x2b, 0x06, 0x82, 0xbe,
  0xb0, 0x1e, 0x1a, 0xbd, 0x34, 0x22, 0xda, 0x3d, 0x7a, 0x31, 0x7c, 0xbe,
  0x5a, 0xd4, 0x19, 0x3e, 0xe4, 0xfd, 0x95, 0x3d, 0x96, 0x71, 0x40, 0x3e,
  0xee, 0x24, 0x55, 0x3e, 0xc8, 0x1d, 0x59, 0xbd, 0x80, 0x31, 0x45, 0xbe,
  0x66, 0x91, 0x8f, 0xbe, 0x76, 0xbc, 0x58, 0x3e, 0xcc, 0x40, 0x01, 0xbe,
  0xac, 0xe2, 0x9d, 0xbd, 0x24, 0x0c, 0x95, 0x3d, 0x7a, 0xc0, 0x91, 0xbe,
  0xa0, 0x61, 0xd3, 0x3c, 0xaf, 0x15, 0xb1, 0x3e, 0x5f, 0x20, 0x9a, 0xbe,
  0x9e, 0xb9, 0x6c, 0x3e, 0xaf, 0x2f, 0x85, 0xbe, 0x01, 0x18, 0x8b, 0x3e,
  0x80, 0xbd, 0x03, 0xbc, 0xa7, 0xda, 0x22, 0x3e, 0x97, 0x4b, 0x7c, 0xbe,
  0x23, 0x69, 0x89, 0xbe, 0x70, 0x35, 0x50, 0x3d, 0xfc, 0xa0, 0xaa, 0xbd,
  0xf6, 0x85, 0x87, 0x3e, 0x83, 0x21, 0x40, 0x3d, 0x92, 0xa0, 0x2c, 0x3e,
  0x88, 0xf7, 0xa4, 0xbe, 0x16, 0xb8, 0x3d, 0x3e, 0x53, 0xac, 0x0b, 0x3e,
  0xda, 0x6a, 0x2a, 0xbe, 0x46, 0x02, 0xb9, 0xbe, 0xa5, 0xf1, 0xea, 0xbd,
  0xf9, 0x3f, 0x88, 0x3e, 0x60, 0xe1, 0xac, 0xbd, 0x7c, 0x8d, 0x68, 0x3e,
  0x4b, 0x9d, 0x8b, 0xbd, 0x9e, 0x10, 0x69, 0xbe, 0x57, 0x8b, 0xb4, 0x3e,
  0xe6, 0xd6, 0xa3, 0xbe, 0x80, 0xf0, 0xb5, 0x3d, 0xe6, 0x58, 0x4f, 0x3e,
  0x09, 0xe6, 0x5d, 0x3d, 0x8c, 0x9d, 0x13, 0x3e, 0x00, 0x79, 0x01, 0xbd,
  0xec, 0x61, 0x1e, 0xbe, 0x50, 0x78, 0xa1, 0xbe, 0xdc, 0x1d, 0xc1, 0xbe,
  0xc4, 0xea, 0xcd, 0xbd, 0x66, 0x26, 0xa3, 0xbe, 0x31, 0x42, 0x63, 0x3e,
  0xcc, 0x42, 0x7f, 0x3e, 0x1e, 0x9a, 0xae, 0x3e, 0xce, 0x29, 0x53, 0xbe,
  0xbe, 0xa8, 0xaf, 0xbe, 0xa0, 0x9d, 0xcc, 0x3d, 0x76, 0x4c, 0x0f, 0xbd,
  0x43, 0x7e, 0xf9, 0xbe, 0xf4, 0xe7, 0x3d, 0xbf, 0xf8, 0x08, 0x07, 0x3e,
  0x38, 0xf6, 0x02, 0xbd, 0xee, 0xe4, 0x2c, 0x3e, 0x3a, 0xea, 0x4d, 0xbf,
  0xb9, 0xd4, 0x9e, 0x3e, 0xc0, 0x5f, 0x3f, 0xbf, 0x40, 0x43, 0x32, 0x3c,
  0x8a, 0xbb, 0x73, 0x3e, 0xb2, 0xec, 0xc5, 0x3e, 0x1c, 0xc2, 0x38, 0xbe,
  0xc4, 0xd5, 0x6c, 0xbf, 0x1c, 0x2e, 0x15, 0x3e, 0x8b, 0x93, 0x8f, 0xbe,
  0x6e, 0x82, 0x7a, 0xbe, 0xdc, 0x6e, 0xc0, 0x3c, 0x17, 0x4a, 0x89, 0x3e,
  0x37, 0x0f, 0x65, 0xbf, 0xd6, 0x4a, 0x39, 0x3e, 0xc5, 0x66, 0xa5, 0x3e,
  0xff, 0xc0, 0x91, 0xbe, 0x5e, 0x51, 0x4a, 0x3e, 0x61, 0x8f, 0x8d, 0x3e,
  0x6c, 0x0c, 0x23, 0xbf, 0x6d, 0xf2, 0x30, 0xbf, 0xdc, 0x29, 0xa0, 0x3f,
  0xf4, 0x48, 0x32, 0x3f, 0xd1, 0xdd, 0x88, 0x3e, 0xb2, 0x77, 0xaa, 0x3d,
  0x90, 0x7f, 0x2e, 0x3d, 0x56, 0xa8, 0xf9, 0x3e, 0x79, 0xd4, 0x5a, 0xbf,
  0x6f, 0x50, 0x99, 0xbf, 0x2c, 0xb3, 0x11, 0x3e, 0x84, 0x1b, 0x92, 0x3d,
  0x4a, 0x11, 0xc3, 0x3e, 0xd6, 0xcf, 0x30, 0xbf, 0x7d, 0xec, 0x32, 0x3f,
  0x8f, 0x83, 0x94, 0xbf, 0x8e, 0xac, 0x8d, 0xbe, 0x6b, 0x0d, 0x97, 0x3e,
  0xcc, 0x42, 0xc4, 0x3f, 0xb5, 0xb1, 0x6f, 0x3e, 0x06, 0x73, 0x15, 0xbf,
  0xa9, 0x22, 0x61, 0x3e, 0x8c, 0x6b, 0x0b, 0xbe, 0x4e, 0x29, 0x2f, 0x3e,
  0x1f, 0x00, 0x07, 0x3f, 0x6d, 0xc2, 0x9b, 0xbe, 0xd5, 0x2c, 0x53, 0xbf,
  0x81, 0x43, 0x42, 0xbe, 0xb7, 0x3a, 0x80, 0xbe, 0xf2, 0xd2, 0x27, 0x3e,
  0x8e, 0xcd, 0x31, 0x3f, 0x8c, 0x6b, 0x24, 0xbe, 0x9a, 0xd0, 0x8a, 0xbf,
  0x0a, 0x9c, 0x3d, 0xbf, 0x59, 0x85, 0x17, 0xbf, 0x84, 0x76, 0x46, 0xbe,
  0xe8, 0xe6, 0x67, 0xbd, 0x35, 0xbf, 0x04, 0x3e, 0xb8, 0xac, 0xd2, 0x3d,
  0x92, 0xa1, 0x9d, 0xbe, 0x6f, 0x15, 0x96, 0x3f, 0x4d, 0x36, 0x69, 0x3f,
  0x94, 0x4c, 0xe6, 0x3d, 0xa2, 0xf2, 0x59, 0x3e, 0xe8, 0x8a, 0x03, 0x3f,
  0x73, 0x1e, 0xa8, 0x3f, 0x8d, 0x9f, 0x09, 0xbf, 0xcd, 0x79, 0xab, 0x3f,
  0x6b, 0x4d, 0x4c, 0xbe, 0xb8, 0x07, 0x24, 0xbd, 0xe8, 0x44, 0x66, 0xbf,
  0xf5, 0xcc, 0xcf, 0x3e, 0xb7, 0x3a, 0x88, 0x3f, 0xd6, 0xd9, 0x81, 0xbe,
  0x00, 0x87, 0x2c, 0xbc, 0x88, 0x40, 0xc3, 0x3d, 0x7f, 0xb8, 0x57, 0xbe,
  0xac, 0x46, 0x8f, 0x3e, 0xbb, 0xa2, 0xaf, 0x3f, 0x9a, 0xce, 0x75, 0x3e,
  0x5e, 0xe5, 0xa0, 0xbe, 0xa6, 0x13, 0x56, 0xbe, 0xe7, 0xee, 0xf9, 0xbe,
  0x9f, 0x65, 0x89, 0x3e, 0xb3, 0x05, 0xa6, 0x3f, 0xd6, 0x71, 0xa9, 0x3f,
  0xb8, 0xc5, 0x11, 0x3f, 0x78, 0x08, 0x24, 0x3f, 0x40, 0xf0, 0x48, 0xbd,
  0x01, 0x37, 0x8a, 0x3e, 0xd6, 0xa4, 0x6e, 0x3e, 0x90, 0xee, 0xd8, 0x3d,
  0x0a, 0x29, 0x10, 0xbf, 0xcc, 0xbd, 0x85, 0xbf, 0x9f, 0x53, 0x90, 0xbe,
  0x24, 0xf6, 0x78, 0xbe, 0x40, 0x15, 0xb8, 0x3d, 0xff, 0xa4, 0x13, 0xbf,
  0x6d, 0xe6, 0x2a, 0x3f, 0x8b, 0xda, 0x7f, 0xbf, 0x97, 0xde, 0x12, 0xbe,
  0x10, 0xc1, 0x8a, 0x3d, 0xa7, 0x33, 0x10, 0x3f, 0x8a, 0x32, 0x33, 0x3c,
  0xf7, 0x33, 0x92, 0xbf, 0xad, 0x15, 0xad, 0xbe, 0x80, 0xbb, 0x1a, 0xbd,
  0x91, 0x90, 0x40, 0xbe, 0xf2, 0xab, 0x28, 0x3e, 0x60, 0xb9, 0x8b, 0x3e,
  0x69, 0xcd, 0x6e, 0xbf, 0x10, 0xce, 0xc5, 0xbc, 0x00, 0xd5, 0x87, 0x3a,
  0x1e, 0x29, 0x68, 0x3e, 0x82, 0xf0, 0x20, 0x3f, 0x80, 0x16, 0x13, 0x3d,
  0x4f, 0xc1, 0x28, 0xbf, 0x3f, 0x0f, 0x64, 0xbf, 0x7f, 0xce, 0x8d, 0x3e,
  0x8e, 0x09, 0x76, 0xbe, 0x9a, 0x73, 0x2e, 0x3e, 0x5e, 0x27, 0x50, 0xbe,
  0x6a, 0xd9, 0x07, 0x3e, 0x38, 0xda, 0x49, 0x3d, 0x92, 0xc7, 0x60, 0x3e,
  0x8a, 0x3f, 0x22, 0x3e, 0x80, 0x01, 0xf4, 0x3d, 0x86, 0xe5, 0x47, 0x3e,
  0x1f, 0xa0, 0xa5, 0xbe, 0xbb, 0xb6, 0x98, 0x3e, 0xd8, 0x6f, 0xf6, 0xbd,
  0xe2, 0x45, 0x5d, 0x3e, 0x9f, 0x3d, 0x94, 0x3e, 0x90, 0x6e, 0xe4, 0x3d,
  0x80, 0x2f, 0x38, 0xbb, 0x80, 0x7c, 0x81, 0xbd, 0xa0, 0xc9, 0xa6, 0xbd,
  0x67, 0x6a, 0xa7, 0x3e, 0x60, 0x49, 0x94, 0x3c, 0x34, 0x7a, 0x8e, 0xbd,
  0x94, 0x90, 0xe8, 0x3d, 0x2f, 0x51, 0x24, 0xbe, 0x6a, 0x09, 0x5f, 0x3e,
  0xff, 0x4d, 0x4b, 0xbe, 0x80, 0x48, 0x78, 0xbd, 0xcb, 0x19, 0x0a, 0xbe,
  0x54, 0xc0, 0xb5, 0xbd, 0xf0, 0x7c, 0xf4, 0xbd, 0x80, 0xf4, 0x4c, 0xbb,
  0x0f, 0x90, 0x6a, 0xbe, 0x0d, 0xb2, 0x4e, 0xbf, 0xa2, 0xf4, 0xaa, 0xbd,
  0x00, 0x78, 0xdb, 0xbb, 0xca, 0x95, 0x55, 0xbe, 0xa6, 0x6e, 0x05, 0x3e,
  0x65, 0x65, 0x1e, 0x3d, 0x86, 0x23, 0x79, 0x3f, 0x7b, 0x1a, 0x87, 0x3f,
  0x60, 0x05, 0x26, 0x3d, 0x06, 0x1e, 0x0c, 0xbe, 0x24, 0x92, 0xd4, 0x3e,
  0xfd, 0x32, 0x81, 0x3f, 0x69, 0x5a, 0x3d, 0xbe, 0xa4, 0x8b, 0x38, 0x3f,
  0x48, 0xc8, 0x62, 0xbd, 0x53, 0x92, 0xab, 0xbe, 0x1c, 0xf5, 0x69, 0xbd,
  0x59, 0x41, 0xce, 0x3e, 0xab, 0x6b, 0x43, 0x3f, 0xf2, 0x94, 0xfa, 0xbd,
  0x61, 0x26, 0xab, 0x3e, 0x2a, 0x8f, 0x3f, 0x3e, 0x2d, 0x5e, 0xb3, 0xbe,
  0x82, 0x0a, 0xbd, 0xbd, 0x43, 0x15, 0x40, 0x3f, 0x52, 0x64, 0x79, 0x3e,
  0xf0, 0xa8, 0x82, 0xbd, 0x8f, 0x7b, 0x43, 0xbe, 0x62, 0xf7, 0x48, 0xbe,
  0x6c, 0x2c, 0x0a, 0x3e, 0x68, 0x3b, 0x87, 0x3f, 0x10, 0x86, 0x2f, 0x3f,
  0x87, 0xb5, 0xde, 0xbe, 0x85, 0xec, 0x8a, 0xbe, 0x76, 0x1b, 0x03, 0x3e,
  0x2b, 0xfa, 0x70, 0xbe, 0xc8, 0x25, 0x57, 0x3d, 0x78, 0x04, 0x5a, 0x3e,
  0xdc, 0xd6, 0x71, 0x3f, 0x75, 0x84, 0x8c, 0x3f, 0x8a, 0xb8, 0x33, 0x3e,
  0xb0, 0x52, 0xc0, 0x3d, 0xce, 0x00, 0xd1, 0x3e, 0xde, 0x05, 0x56, 0x3f,
  0xb0, 0xdb, 0xaf, 0xbe, 0x5a, 0xaf, 0xb9, 0x3f, 0x80, 0xae, 0x94, 0xbd,
  0xb9, 0x35, 0x94, 0x3e, 0xe5, 0x39, 0x46, 0xbf, 0xc9, 0x9d, 0xc9, 0x3e,
  0xbb, 0x1c, 0x50, 0x3f, 0xfa, 0xab, 0x3a, 0x3e, 0x44, 0x72, 0x86, 0xbe,
  0x9c, 0xda, 0x8c, 0xbe, 0x14, 0x43, 0xb5, 0xbd, 0x52, 0x1a, 0xe5, 0x3e,
  0xff, 0x4b, 0x3a, 0x3f, 0x84, 0xdd, 0xb0, 0xbe, 0x2c, 0x1e, 0x0d, 0xbe,
  0xc0, 0xa3, 0x26, 0xbc, 0x40, 0xba, 0xdc, 0xbe, 0x28, 0x8b, 0x72, 0xbe,
  0x83, 0x67, 0x43, 0x3f, 0x1b, 0xea, 0x9b, 0x3f, 0xc2, 0x39, 0x36, 0x3e,
  0xc9, 0x22, 0xac, 0x3e, 0xf0, 0xa7, 0x20, 0xbe, 0x60, 0x1d, 0xde, 0xbd,
  0x2e, 0xb2, 0x5a, 0x3e, 0x8a, 0x32, 0x52, 0xbe, 0x20, 0x38, 0x8b, 0x3c,
  0x84, 0xf3, 0x02, 0x3e, 0xdd, 0x8a, 0x96, 0x3e, 0x30, 0x5f, 0xd8, 0xbc,
  0x80, 0xd8, 0x48, 0xbb, 0x60, 0xca, 0x5a, 0x3d, 0xca, 0x72, 0x4f, 0x3e,
  0x98, 0xbe, 0x2b, 0xbe, 0x9b, 0xd9, 0x1d, 0xbe, 0x30, 0xea, 0x88, 0xbe,
  0x62, 0xc7, 0x17, 0xbe, 0x9c, 0xaf, 0x34, 0xbe, 0x39, 0x75, 0x46, 0xbe,
  0xba, 0x07, 0x58, 0x3e, 0x93, 0xb8, 0x8b, 0x3e, 0xe0, 0x7c, 0x4e, 0x3c,
  0xbf, 0xeb, 0xac, 0xbe, 0x52, 0xe8, 0x08, 0xbe, 0xc0, 0x0e, 0xa6, 0xbc,
  0x31, 0xbd, 0x60, 0xbe, 0x95, 0x84, 0x84, 0x3e, 0xca, 0xdc, 0x9f, 0xbe,
  0xc8, 0xa4, 0x7e, 0xbd, 0xc8, 0x97, 0x48, 0x3d, 0x2e, 0x9b, 0x59, 0x3e,
  0xa5, 0x64, 0x95, 0x3e, 0xd2, 0xe8, 0x1e, 0x3e, 0xef, 0xcb, 0xd9, 0x3e,
  0x00, 0xf2, 0x5f, 0xbd, 0xdf, 0x55, 0x7c, 0xbe, 0x5c, 0xc2, 0x08, 0x3e,
  0x8d, 0x14, 0x42, 0x3e, 0xcb, 0x72, 0xfe, 0xbe, 0xe2, 0x0b, 0x78, 0xbf,
  0x49, 0xf7, 0x87, 0xbe, 0x54, 0x32, 0x93, 0xbe, 0xac, 0x34, 0x69, 0x3e,
  0xa4, 0xf8, 0x21, 0xbf, 0x13, 0x74, 0xb3, 0xbd, 0xd9, 0x86, 0x11, 0xbf,
  0xe8, 0x52, 0x9b, 0x3d, 0xa8, 0xce, 0x4b, 0xbd, 0xf9, 0xfc, 0xea, 0x3e,
  0xe9, 0xc9, 0x1b, 0x3e, 0xb1, 0xee, 0x83, 0xbf, 0x60, 0xdc, 0xb0, 0x3c,
  0x1a, 0x35, 0x64, 0x3e, 0x47, 0x39, 0xac, 0xbe, 0x09, 0x16, 0x94, 0xbd,
  0x5d, 0x46, 0x70, 0xbe, 0x19, 0xa4, 0xd9, 0xbe, 0xa0, 0xdc, 0x3b, 0xbd,
  0x00, 0x60, 0x41, 0x38, 0xcd, 0xa8, 0xa8, 0x3e, 0xc9, 0xc2, 0xbe, 0x3d,
  0x90, 0x63, 0x10, 0xbd, 0xd7, 0x76, 0xe0, 0xbe, 0x24, 0xa9, 0x20, 0xbf,
  0x10, 0xdf, 0x5f, 0xbf, 0xaf, 0x46, 0x10, 0x3e, 0x8e, 0x8c, 0x78, 0x3e,
  0xbb, 0x09, 0xa6, 0xbe, 0xa8, 0xe2, 0xaf, 0xbd, 0xa5, 0x41, 0x78, 0x3d,
  0x9f, 0x58, 0x31, 0x3f, 0xf6, 0x51, 0x92, 0x3f, 0x48, 0xe5, 0x86, 0xbd,
  0xd2, 0xad, 0x38, 0xbe, 0xf8, 0x3d, 0x1a, 0xbe, 0x9d, 0x7b, 0x40, 0x3f,
  0x4d, 0x91, 0x9d, 0xbc, 0xc6, 0x22, 0x80, 0x3f, 0x00, 0x25, 0x12, 0xbb,
  0xac, 0xf6, 0xf8, 0x3d, 0x2a, 0x01, 0x2a, 0xbf, 0x5f, 0x20, 0x5c, 0xbd,
  0xce, 0x9d, 0x99, 0x3f, 0xb9, 0x7f, 0x5e, 0xbe, 0x20, 0x9c, 0x99, 0x3c,
  0x80, 0xd5, 0x19, 0xbb, 0x35, 0x64, 0xe5, 0xbe, 0xaa, 0x34, 0xa5, 0x3e,
  0xe4, 0x46, 0xa9, 0x3f, 0x09, 0xf7, 0x80, 0xbe, 0xe6, 0x78, 0x70, 0x3e,
  0x68, 0x2e, 0x18, 0xbd, 0xe5, 0x4b, 0x85, 0xbd, 0xbb, 0x83, 0xa8, 0x3e,
  0x5c, 0x07, 0x96, 0x3f, 0x4a, 0xc9, 0x2b, 0x3f, 0x98, 0x0b, 0x90, 0xbd,
  0x9d, 0x50, 0xf1, 0x3c, 0x68, 0x7f, 0x67, 0x3d, 0x15, 0x56, 0x2f, 0x3e,
  0x9a, 0xc8, 0x6f, 0xbe, 0x16, 0x62, 0xa1, 0x3e, 0xfe, 0xd9, 0xb6, 0xbe,
  0x54, 0x37, 0x5b, 0xbe, 0xc2, 0xdf, 0x30, 0x3e, 0x86, 0x66, 0x6a, 0x3e,
  0x2d, 0xd4, 0x73, 0xbe, 0x5e, 0x7b, 0x06, 0xbe, 0x1f, 0x7a, 0xb8, 0xbc,
  0x80, 0x4f, 0x43, 0x3c, 0x53, 0xf0, 0x89, 0x3e, 0xd7, 0xa5, 0x93, 0xbe,
  0x44, 0xef, 0x88, 0x3e, 0x59, 0xbb, 0xe6, 0xbd, 0xd0, 0xc2, 0xdd, 0xbd,
  0x7f, 0xcb, 0x13, 0xbe, 0x06, 0xb6, 0x33, 0xbe, 0x3b, 0xb2, 0x36, 0xbe,
  0xa4, 0x3d, 0xde, 0xbc, 0xd5, 0x6a, 0x27, 0x3d, 0x50, 0x52, 0xc5, 0xbb,
  0x90, 0xcc, 0xe6, 0x3d, 0x7e, 0xc7, 0x58, 0x3e, 0x43, 0x2a, 0xb3, 0x3e,
  0x68, 0x50, 0x4c, 0xbd, 0x78, 0x7c, 0xfd, 0xbd, 0xa0, 0x2d, 0x7c, 0xbd,
  0x77, 0xd8, 0x78, 0xbe, 0xab, 0x5b, 0x5a, 0x3f, 0xae, 0x1d, 0x4c, 0x3f,
  0x28, 0xf7, 0x27, 0x3d, 0x04, 0x56, 0xa2, 0xbe, 0xc0, 0x23, 0x51, 0x3d,
  0xc9, 0x48, 0x0a, 0x3f, 0xc3, 0xdc, 0x68, 0xbf, 0x02, 0xdc, 0x9e, 0xbf,
  0x40, 0xe2, 0xb9, 0x3b, 0x00, 0xbb, 0xfd, 0xba, 0xba, 0x37, 0xb7, 0x3d,
  0xfe, 0x9c, 0x92, 0xbf, 0x2e, 0xfa, 0xdd, 0x3e, 0x5b, 0x67, 0x9b, 0xbf,
  0xb0, 0x51, 0x52, 0xbd, 0xfe, 0xaf, 0x54, 0x3e, 0xaf, 0x06, 0x1a, 0x3f,
  0xd0, 0x34, 0x8d, 0x3e, 0xb4, 0x75, 0x8b, 0xbf, 0x84, 0xbe, 0xa2, 0xbe,
  0x12, 0x9a, 0x1d, 0x3e, 0x7d, 0x5e, 0xa6, 0x3e, 0x83, 0xe9, 0xd0, 0x3e,
  0xe9, 0x00, 0xff, 0x3d, 0xf8, 0x33, 0x84, 0xbf, 0x60, 0x46, 0x58, 0x3d,
  0xea, 0xa7, 0x07, 0x3e, 0x96, 0x02, 0x7c, 0xbe, 0x1e, 0x4f, 0x57, 0x3f,
  0x3a, 0xf9, 0xe8, 0xbd, 0xe2, 0xc1, 0x3f, 0xbf, 0x1d, 0x47, 0x61, 0xbf,
  0x1d, 0xcc, 0x81, 0x3f, 0x7f, 0x93, 0xe2, 0x3e, 0xbe, 0x5b, 0x7e, 0x3e,
  0x71, 0x07, 0xc0, 0x3d, 0x52, 0xac, 0x76, 0x3e, 0x24, 0x6c, 0xaa, 0x3e,
  0x8d, 0x67, 0x3b, 0xbf, 0x55, 0xc9, 0x77, 0xbf, 0x97, 0xa8, 0xa8, 0xbe,
  0x9a, 0x34, 0x1d, 0x3e, 0x71, 0x7f, 0x64, 0xbd, 0x39, 0xb0, 0x02, 0xbf,
  0x1e, 0xf7, 0x56, 0x3f, 0x24, 0x72, 0x3c, 0xbf, 0xc8, 0xa6, 0x4c, 0x3d,
  0xc0, 0x60, 0xbe, 0xbb, 0x86, 0x49, 0x32, 0x3f, 0x1b, 0xef, 0xc5, 0x3e,
  0xb1, 0xdf, 0x80, 0xbf, 0xbf, 0x77, 0xa2, 0xbe, 0xf8, 0x36, 0x9b, 0xbe,
  0x00, 0xdd, 0x00, 0x3d, 0x04, 0xa6, 0x09, 0x3f, 0xb4, 0x21, 0x9b, 0xbd,
  0xad, 0xb7, 0x83, 0xbf, 0xd0, 0x28, 0xd5, 0xbc, 0xc4, 0xbc, 0x95, 0xbe,
  0x53, 0x97, 0xa3, 0x3e, 0x8c, 0x93, 0x41, 0x3f, 0xb1, 0x05, 0x9d, 0x3e,
  0x5a, 0x16, 0x98, 0xbf, 0x01, 0x5e, 0x6c, 0xbf, 0x52, 0xfe, 0xff, 0xff,
  0x04, 0x00, 0x00, 0x00, 0x40, 0x00, 0x00, 0x00, 0x00, 0x00, 0x00, 0x00,
  0x00, 0x00, 0x00, 0x00, 0x5f, 0xe7, 0xfe, 0xbc, 0xf6, 0x5b, 0x34, 0xbd,
  0x57, 0x83, 0xce, 0xbd, 0x94, 0x62, 0xa5, 0x3e, 0x24, 0x2e, 0xf6, 0xbc,
  0x00, 0x00, 0x00, 0x00, 0x77, 0x24, 0x2c, 0x3e, 0x6f, 0x07, 0x82, 0x3e,
  0x00, 0x00, 0x00, 0x00, 0x48, 0x7f, 0xa5, 0xbd, 0xb0, 0x7e, 0x8d, 0x3e,
  0x9f, 0x12, 0x1a, 0xbd, 0x9f, 0x4a, 0x6d, 0xbd, 0xc0, 0x0e, 0xa1, 0xbd,
  0x9e, 0xfe, 0xff, 0xff, 0x04, 0x00, 0x00, 0x00, 0x0c, 0x00, 0x00, 0x00,
  0x4d, 0x45, 0x17, 0x3d, 0xe6, 0x5e, 0x67, 0x3e, 0x9f, 0x1b, 0x48, 0xbe,
  0xb6, 0xfe, 0xff, 0xff, 0x04, 0x00, 0x00, 0x00, 0xc0, 0x00, 0x00, 0x00,
  0x84, 0x28, 0x8a, 0xbd, 0x80, 0xde, 0xef, 0x3b, 0x0d, 0x4c, 0xc6, 0x3e,
  0xa0, 0xf7, 0xf1, 0xbf, 0x47, 0x3b, 0xae, 0x3e, 0x0c, 0xcf, 0xb9, 0x3e,
  0x54, 0xe8, 0xfb, 0xbe, 0x80, 0x15, 0x39, 0xbc, 0xbf, 0xaa, 0xcb, 0x3e,
  0xaa, 0xf6, 0x1f, 0x3f, 0x4a, 0x39, 0x53, 0xbe, 0xeb, 0xc5, 0xb7, 0xbf,
  0x5c, 0x9e, 0x09, 0x3f, 0xe9, 0xe9, 0xaa, 0x3e, 0x3e, 0x8d, 0x2a, 0xbe,
  0xa9, 0x6d, 0xe4, 0x3d, 0x37, 0x28, 0x9e, 0xbe, 0xe8, 0x11, 0x1d, 0x3e,
  0x40, 0xf4, 0x59, 0xbd, 0x8b, 0x82, 0x25, 0xc0, 0xc7, 0x05, 0x1b, 0xc0,
  0xb9, 0x4d, 0xd9, 0x3f, 0x0d, 0x09, 0x53, 0xc0, 0x30, 0xf6, 0x4f, 0x3e,
  0x80, 0x06, 0x38, 0x3f, 0x4b, 0xcd, 0x9e, 0x3f, 0xec, 0xb5, 0xc0, 0xbd,
  0x28, 0x53, 0x39, 0xc0, 0xb9, 0xec, 0xce, 0x3f, 0xab, 0x0a, 0x40, 0x3e,
  0xe3, 0x09, 0x42, 0xc0, 0xf2, 0xda, 0x24, 0xc0, 0xd4, 0xa8, 0x51, 0x3e,
  0xf0, 0x0b, 0x74, 0xbe, 0xbb, 0x8e, 0x7f, 0x3e, 0x27, 0x5a, 0xe3, 0x3f,
  0xdf, 0x43, 0xe9, 0x3e, 0x79, 0x84, 0xa0, 0xbf, 0x31, 0x4f, 0xa3, 0x3f,
  0x40, 0x2c, 0x09, 0xbf, 0x30, 0x8f, 0x98, 0xbf, 0x9f, 0x70, 0x6e, 0xbf,
  0xb6, 0xd6, 0xe2, 0x3e, 0x9b, 0xce, 0xc3, 0x3f, 0x6f, 0xe8, 0x88, 0xbf,
  0x5b, 0x10, 0x02, 0xbf, 0xbf, 0xbb, 0x55, 0x3f, 0xf1, 0xac, 0x4b, 0x3f,
  0x48, 0xfb, 0xff, 0xff, 0x0f, 0x00, 0x00, 0x00, 0x54, 0x4f, 0x43, 0x4f,
  0x20, 0x43, 0x6f, 0x6e, 0x76, 0x65, 0x72, 0x74, 0x65, 0x64, 0x2e, 0x00,
  0x01, 0x00, 0x00, 0x00, 0x10, 0x00, 0x00, 0x00, 0x0c, 0x00, 0x14, 0x00,
  0x04, 0x00, 0x08, 0x00, 0x0c, 0x00, 0x10, 0x00, 0x0c, 0x00, 0x00, 0x00,
  0x3c, 0x01, 0x00, 0x00, 0x30, 0x01, 0x00, 0x00, 0x24, 0x01, 0x00, 0x00,
  0x04, 0x00, 0x00, 0x00, 0x04, 0x00, 0x00, 0x00, 0xdc, 0x00, 0x00, 0x00,
  0x94, 0x00, 0x00, 0x00, 0x50, 0x00, 0x00, 0x00, 0x14, 0x00, 0x00, 0x00,
  0x00, 0x00, 0x0e, 0x00, 0x1a, 0x00, 0x08, 0x00, 0x0c, 0x00, 0x10, 0x00,
  0x07, 0x00, 0x14, 0x00, 0x0e, 0x00, 0x00, 0x00, 0x00, 0x00, 0x00, 0x09,
  0x01, 0x00, 0x00, 0x00, 0x24, 0x00, 0x00, 0x00, 0x18, 0x00, 0x00, 0x00,
  0x0c, 0x00, 0x00, 0x00, 0x00, 0x00, 0x06, 0x00, 0x08, 0x00, 0x04, 0x00,
  0x06, 0x00, 0x00, 0x00, 0x00, 0x00, 0x80, 0x3f, 0x01, 0x00, 0x00, 0x00,
  0x00, 0x00, 0x00, 0x00, 0x01, 0x00, 0x00, 0x00, 0x08, 0x00, 0x00, 0x00,
  0xce, 0xff, 0xff, 0xff, 0x00, 0x00, 0x00, 0x08, 0x18, 0x00, 0x00, 0x00,
  0x0c, 0x00, 0x00, 0x00, 0x04, 0x00, 0x00, 0x00, 0xf8, 0xfb, 0xff, 0xff,
  0x01, 0x00, 0x00, 0x00, 0x08, 0x00, 0x00, 0x00, 0x03, 0x00, 0x00, 0x00,
  0x07, 0x00, 0x00, 0x00, 0x09, 0x00, 0x00, 0x00, 0x0a, 0x00, 0x00, 0x00,
  0x00, 0x00, 0x0e, 0x00, 0x14, 0x00, 0x00, 0x00, 0x08, 0x00, 0x0c, 0x00,
  0x07, 0x00, 0x10, 0x00, 0x0e, 0x00, 0x00, 0x00, 0x00, 0x00, 0x00, 0x08,
  0x1c, 0x00, 0x00, 0x00, 0x10, 0x00, 0x00, 0x00, 0x04, 0x00, 0x00, 0x00,
  0xba, 0xff, 0xff, 0xff, 0x00, 0x00, 0x00, 0x01, 0x01, 0x00, 0x00, 0x00,
  0x07, 0x00, 0x00, 0x00, 0x03, 0x00, 0x00, 0x00, 0x04, 0x00, 0x00, 0x00,
  0x05, 0x00, 0x00, 0x00, 0x06, 0x00, 0x00, 0x00, 0x00, 0x00, 0x0e, 0x00,
  0x16, 0x00, 0x00, 0x00, 0x08, 0x00, 0x0c, 0x00, 0x07, 0x00, 0x10, 0x00,
  0x0e, 0x00, 0x00, 0x00, 0x00, 0x00, 0x00, 0x08, 0x24, 0x00, 0x00, 0x00,
  0x18, 0x00, 0x00, 0x00, 0x0c, 0x00, 0x00, 0x00, 0x00, 0x00, 0x06, 0x00,
  0x08, 0x00, 0x07, 0x00, 0x06, 0x00, 0x00, 0x00, 0x00, 0x00, 0x00, 0x01,
  0x01, 0x00, 0x00, 0x00, 0x04, 0x00, 0x00, 0x00, 0x03, 0x00, 0x00, 0x00,
  0x01, 0x00, 0x00, 0x00, 0x02, 0x00, 0x00, 0x00, 0x03, 0x00, 0x00, 0x00,
  0x01, 0x00, 0x00, 0x00, 0x00, 0x00, 0x00, 0x00, 0x01, 0x00, 0x00, 0x00,
  0x01, 0x00, 0x00, 0x00, 0x0b, 0x00, 0x00, 0x00, 0x34, 0x03, 0x00, 0x00,
  0xcc, 0x02, 0x00, 0x00, 0x6c, 0x02, 0x00, 0x00, 0x24, 0x02, 0x00, 0x00,
  0xe0, 0x01, 0x00, 0x00, 0x80, 0x01, 0x00, 0x00, 0x38, 0x01, 0x00, 0x00,
  0xf4, 0x00, 0x00, 0x00, 0xac, 0x00, 0x00, 0x00, 0x4c, 0x00, 0x00, 0x00,
  0x04, 0x00, 0x00, 0x00, 0x06, 0xfd, 0xff, 0xff, 0x38, 0x00, 0x00, 0x00,
  0x02, 0x00, 0x00, 0x00, 0x0c, 0x00, 0x00, 0x00, 0x04, 0x00, 0x00, 0x00,
  0xf8, 0xfc, 0xff, 0xff, 0x1e, 0x00, 0x00, 0x00, 0x73, 0x65, 0x71, 0x75,
  0x65, 0x6e, 0x74, 0x69, 0x61, 0x6c, 0x2f, 0x64, 0x65, 0x6e, 0x73, 0x65,
  0x5f, 0x32, 0x2f, 0x4d, 0x61, 0x74, 0x4d, 0x75, 0x6c, 0x5f, 0x62, 0x69,
  0x61, 0x73, 0x00, 0x00, 0x01, 0x00, 0x00, 0x00, 0x03, 0x00, 0x00, 0x00,
  0x4a, 0xfd, 0xff, 0xff, 0x4c, 0x00, 0x00, 0x00, 0x01, 0x00, 0x00, 0x00,
  0x0c, 0x00, 0x00, 0x00, 0x04, 0x00, 0x00, 0x00, 0x3c, 0xfd, 0xff, 0xff,
  0x32, 0x00, 0x00, 0x00, 0x73, 0x65, 0x71, 0x75, 0x65, 0x6e, 0x74, 0x69,
  0x61, 0x6c, 0x2f, 0x64, 0x65, 0x6e, 0x73, 0x65, 0x5f, 0x32, 0x2f, 0x4d,
  0x61, 0x74, 0x4d, 0x75, 0x6c, 0x2f, 0x52, 0x65, 0x61, 0x64, 0x56, 0x61,
  0x72, 0x69, 0x61, 0x62, 0x6c, 0x65, 0x4f, 0x70, 0x2f, 0x74, 0x72, 0x61,
  0x6e, 0x73, 0x70, 0x6f, 0x73, 0x65, 0x00, 0x00, 0x02, 0x00, 0x00, 0x00,
  0x03, 0x00, 0x00, 0x00, 0x10, 0x00, 0x00, 0x00, 0xa6, 0xfd, 0xff, 0xff,
  0x34, 0x00, 0x00, 0x00, 0x07, 0x00, 0x00, 0x00, 0x0c, 0x00, 0x00, 0x00,
  0x04, 0x00, 0x00, 0x00, 0x98, 0xfd, 0xff, 0xff, 0x1a, 0x00, 0x00, 0x00,
  0x73, 0x65, 0x71, 0x75, 0x65, 0x6e, 0x74, 0x69, 0x61, 0x6c, 0x2f, 0x64,
  0x65, 0x6e, 0x73, 0x65, 0x5f, 0x32, 0x2f, 0x42, 0x69, 0x61, 0x73, 0x41,
  0x64, 0x64, 0x00, 0x00, 0x02, 0x00, 0x00, 0x00, 0x01, 0x00, 0x00, 0x00,
  0x03, 0x00, 0x00, 0x00, 0xea, 0xfd, 0xff, 0xff, 0x30, 0x00, 0x00, 0x00,
  0x0b, 0x00, 0x00, 0x00, 0x0c, 0x00, 0x00, 0x00, 0x04, 0x00, 0x00, 0x00,
  0xdc, 0xfd, 0xff, 0xff, 0x17, 0x00, 0x00, 0x00, 0x73, 0x65, 0x71, 0x75,
  0x65, 0x6e, 0x74, 0x69, 0x61, 0x6c, 0x2f, 0x64, 0x65, 0x6e, 0x73, 0x65,
  0x5f, 0x31, 0x2f, 0x52, 0x65, 0x6c, 0x75, 0x00, 0x02, 0x00, 0x00, 0x00,
  0x01, 0x00, 0x00, 0x00, 0x10, 0x00, 0x00, 0x00, 0x2a, 0xfe, 0xff, 0xff,
  0x38, 0x00, 0x00, 0x00, 0x03, 0x00, 0x00, 0x00, 0x0c, 0x00, 0x00, 0x00,
  0x04, 0x00, 0x00, 0x00, 0x1c, 0xfe, 0xff, 0xff, 0x1e, 0x00, 0x00, 0x00,
  0x73, 0x65, 0x71, 0x75, 0x65, 0x6e, 0x74, 0x69, 0x61, 0x6c, 0x2f, 0x64,
  0x65, 0x6e, 0x73, 0x65, 0x5f, 0x31, 0x2f, 0x4d, 0x61, 0x74, 0x4d, 0x75,
  0x6c, 0x5f, 0x62, 0x69, 0x61, 0x73, 0x00, 0x00, 0x01, 0x00, 0x00, 0x00,
  0x10, 0x00, 0x00, 0x00, 0x6e, 0xfe, 0xff, 0xff, 0x4c, 0x00, 0x00, 0x00,
  0x04, 0x00, 0x00, 0x00, 0x0c, 0x00, 0x00, 0x00, 0x04, 0x00, 0x00, 0x00,
  0x60, 0xfe, 0xff, 0xff, 0x32, 0x00, 0x00, 0x00, 0x73, 0x65, 0x71, 0x75,
  0x65, 0x6e, 0x74, 0x69, 0x61, 0x6c, 0x2f, 0x64, 0x65, 0x6e, 0x73, 0x65,
  0x5f, 0x31, 0x2f, 0x4d, 0x61, 0x74, 0x4d, 0x75, 0x6c, 0x2f, 0x52, 0x65,
  0x61, 0x64, 0x56, 0x61, 0x72, 0x69, 0x61, 0x62, 0x6c, 0x65, 0x4f, 0x70,
  0x2f, 0x74, 0x72, 0x61, 0x6e, 0x73, 0x70, 0x6f, 0x73, 0x65, 0x00, 0x00,
  0x02, 0x00, 0x00, 0x00, 0x10, 0x00, 0x00, 0x00, 0x20, 0x00, 0x00, 0x00,
  0xca, 0xfe, 0xff, 0xff, 0x30, 0x00, 0x00, 0x00, 0x08, 0x00, 0x00, 0x00,
  0x0c, 0x00, 0x00, 0x00, 0x04, 0x00, 0x00, 0x00, 0xbc, 0xfe, 0xff, 0xff,
  0x15, 0x00, 0x00, 0x00, 0x73, 0x65, 0x71, 0x75, 0x65, 0x6e, 0x74, 0x69,
  0x61, 0x6c, 0x2f, 0x64, 0x65, 0x6e, 0x73, 0x65, 0x2f, 0x52, 0x65, 0x6c,
  0x75, 0x00, 0x00, 0x00, 0x02, 0x00, 0x00, 0x00, 0x01, 0x00, 0x00, 0x00,
  0x20, 0x00, 0x00, 0x00, 0x0a, 0xff, 0xff, 0xff, 0x38, 0x00, 0x00, 0x00,
  0x05, 0x00, 0x00, 0x00, 0x0c, 0x00, 0x00, 0x00, 0x04, 0x00, 0x00, 0x00,
  0xfc, 0xfe, 0xff, 0xff, 0x1c, 0x00, 0x00, 0x00, 0x73, 0x65, 0x71, 0x75,
  0x65, 0x6e, 0x74, 0x69, 0x61, 0x6c, 0x2f, 0x64, 0x65, 0x6e, 0x73, 0x65,
  0x2f, 0x4d, 0x61, 0x74, 0x4d, 0x75, 0x6c, 0x5f, 0x62, 0x69, 0x61, 0x73,
  0x00, 0x00, 0x00, 0x00, 0x01, 0x00, 0x00, 0x00, 0x20, 0x00, 0x00, 0x00,
  0x4e, 0xff, 0xff, 0xff, 0x4c, 0x00, 0x00, 0x00, 0x09, 0x00, 0x00, 0x00,
  0x0c, 0x00, 0x00, 0x00, 0x04, 0x00, 0x00, 0x00, 0x40, 0xff, 0xff, 0xff,
  0x30, 0x00, 0x00, 0x00, 0x73, 0x65, 0x71, 0x75, 0x65, 0x6e, 0x74, 0x69,
  0x61, 0x6c, 0x2f, 0x64, 0x65, 0x6e, 0x73, 0x65, 0x2f, 0x4d, 0x61, 0x74,
  0x4d, 0x75, 0x6c, 0x2f, 0x52, 0x65, 0x61, 0x64, 0x56, 0x61, 0x72, 0x69,
  0x61, 0x62, 0x6c, 0x65, 0x4f, 0x70, 0x2f, 0x74, 0x72, 0x61, 0x6e, 0x73,
  0x70, 0x6f, 0x73, 0x65, 0x00, 0x00, 0x00, 0x00, 0x02, 0x00, 0x00, 0x00,
  0x20, 0x00, 0x00, 0x00, 0x0c, 0x00, 0x00, 0x00, 0xaa, 0xff, 0xff, 0xff,
  0x44, 0x00, 0x00, 0x00, 0x06, 0x00, 0x00, 0x00, 0x2c, 0x00, 0x00, 0x00,
  0x0c, 0x00, 0x00, 0x00, 0x08, 0x00, 0x0c, 0x00, 0x04, 0x00, 0x08, 0x00,
  0x08, 0x00, 0x00, 0x00, 0x10, 0x00, 0x00, 0x00, 0x04, 0x00, 0x00, 0x00,
  0x01, 0x00, 0x00, 0x00, 0x00, 0x00, 0x7f, 0x43, 0x01, 0x00, 0x00, 0x00,
  0x00, 0x00, 0x00, 0x00, 0x0b, 0x00, 0x00, 0x00, 0x64, 0x65, 0x6e, 0x73,
  0x65, 0x5f, 0x69, 0x6e, 0x70, 0x75, 0x74, 0x00, 0x02, 0x00, 0x00, 0x00,
  0x01, 0x00, 0x00, 0x00, 0x0c, 0x00, 0x00, 0x00, 0x00, 0x00, 0x0e, 0x00,
  0x14, 0x00, 0x04, 0x00, 0x00, 0x00, 0x08, 0x00, 0x0c, 0x00, 0x10, 0x00,
  0x0e, 0x00, 0x00, 0x00, 0x28, 0x00, 0x00, 0x00, 0x0a, 0x00, 0x00, 0x00,
  0x10, 0x00, 0x00, 0x00, 0x08, 0x00, 0x00, 0x00, 0x04, 0x00, 0x04, 0x00,
  0x04, 0x00, 0x00, 0x00, 0x08, 0x00, 0x00, 0x00, 0x49, 0x64, 0x65, 0x6e,
  0x74, 0x69, 0x74, 0x79, 0x00, 0x00, 0x00, 0x00, 0x02, 0x00, 0x00, 0x00,
  0x01, 0x00, 0x00, 0x00, 0x03, 0x00, 0x00, 0x00, 0x02, 0x00, 0x00, 0x00,
  0x20, 0x00, 0x00, 0x00, 0x0c, 0x00, 0x00, 0x00, 0x00, 0x00, 0x06, 0x00,
  0x06, 0x00, 0x05, 0x00, 0x06, 0x00, 0x00, 0x00, 0x00, 0x19, 0x0a, 0x00,
  0x0c, 0x00, 0x07, 0x00, 0x00, 0x00, 0x08, 0x00, 0x0a, 0x00, 0x00, 0x00,
  0x00, 0x00, 0x00, 0x09, 0x03, 0x00, 0x00, 0x00};

const int g_door_model_data_len = 5540;
